0000c4c2
00000caf
fffffbed
000018d2
000009c1
00005308
00001efb
0000d511
000021d0
00001bd9
fffff8d9
ffff73b1
0000a7d9
fffff567
00000a00
000029de
fffe97e5
00002678
00002a6b
00002a9b
00001c22
00003877
0000055d
0000223a
ffff7022
000025b7
ffffddce
ffffff52
00001617
ffffff09
00003598
000046bf
00004393
000019bb
fffffb7b
00012c54
00003d59
ffff224e
00000ed7
ffffb36e
00001e58
00001604
ffffdf04
00007515
00009fd0
fffff577
00003e58
00001597
ffff3660
00001122
00007667
fffffd8b
fffeb0bb
00002b4f
000046fc
0000ff50
ffff269c
00006f95
00001ae8
ffff4221
0000214d
00005848
fffeae4d
ffffbbd1
